3D4B73D2
BC628672
3D84A59C
3E1BF551
BCBFD0D0
BCBFCEB8
3E21B60B
3D9D2B6F
BD404B7F
3D5E3B8A
BD3DD11C
BD3EC354
3CC636B1
BE43EB7D
BE30A1BE
BD665061
BDCF6D76
3D00B780
BDB9F666
BE109E99
3E161523
BCB8F57F
3BDD4845
BE11E4F7
BD5EFA61
3C35BB38
BDEBB906
3D19E300
BD7605AB
BCEEF3D4
BD7675DE
3E3DAC69
BAB0F27C
BDD89E77
3DA874C9
BDFA072D
3CAB191E
BE48AB93
BE0801B4
3CA14489
3D973D19
3C8C62E5
BC3D7B20
BCF6A93F
BE176684
BD936C59
BD3CAD9B
3DD87F88
3D0CBF2B
BE348909
3D04BE40
BD1DBA91
BD8AA21A
3D7A8B4C
3DD32618
3DBEB9E5
BDABDF4C
BCFD4E09
3D07AF21
3DC7CAEA
BD44449E
BC9817B9
BDE2938E
BDF4FBDB
3DA667F9
3E0AE105
BBEBF65E
3DCD85E0
3D1420B4
BD841EDE
3D140789
3E1D7ECC
BB6AD0C4
3E203819
BE862196
3DA8533B
3C0E9F6B
BCF4F2F1
3C1656EF
BE4B86F4
BCB3F423
3D1245B3
3E175600
BD54488C
BDA59429
BD4D8559
3DBB7953
3D06A7F0
BD58FD5D
3D523C43
3C1F0E4E
3DC660A2
BD8FC7A4
BD0635A4
BD209BB7
BE15DD09
3CF294DD
3CD5DC40
3A05F4A1
BCC02D17
BE10EF13
BD2C4C59
BD0C5FC0
BDA44E94
BC8420F7
3D257FB7
3E412557
3C8F0414